const Word fp_conv_wt[] = {0xf572028cf8dc018a,
0xdbd6011301e4ef45,
0xfe4e0270e981fe48,
0x005b10a9fe74ffac,
0x01a4ff4ed6cef3ff,
0x02840207fd994490,
0x001f007af233ff34,
0x2873ffc5012800a1,
0x00571cdf00290730,
0x0077fed02a63feeb,
0xfd13dac6fd5ff4d6,
0x200e01dbffe9fe9c,
0x021af3fa4870fd98,
0xad8203af11db02f0,
0x03ec00dc16951244,
0x0141ff36fdcefff2,
0x04e9ffb0feb9002a,
0xfaed00150516f822,
0x0124fcb9ffe900be,
0x1318029c00e5ffcb,
0xfe0eff8f017ff117,
0x0ecf309401051e3e,
0xffb8ff33f441f99f,
0xff9a07d8fff910b7,
0x01da02260152e3b4,
0x00fd01560188ff4d,
0xfe4002a6009d0357,
0x0350ffb801e5fa78,
0x021b02a8ffe00147,
0x1263fd0d045b0309,
0xf9fa52eefeb5ffc1,
0x1d6b00ab06180803,
0x339f4e67d3c40392,
0xb52bc13c4ee33590,
0x2f9d4c1873b58536,
0xb9efb55e4b6111c5,
0xb3ce1e15733fda74,
0x31c74a70e036cf89,
0xd11b1fdeecb91dd6,
0x5e88b9d143954f81,
0xd3ea4f81de6ef986,
0x3efa2d729bf903ef,
0x43df1470439bfe42,
0xf14e63cd7328c16b,
0xc3ff687efa6e562c,
0x34ec3af7cb0676df,
0xa3fefeb5ae4df817,
0x5f6b9a19b936d93f,
0xf959d537bf2d467c,
0xebd1a62abf1ff352,
0x79bb63b8ef13afc0,
0x0bbecdb52d67270c,
0xf463e2e7c6c88625,
0xacd385dc38bdc8fe,
0x726dcca5ea09ed79,
0xc0ce6b9c15c4358d,
0x77246cbbfe397ed1,
0x642ec8ce572e12c0,
0x9761c2c7c7bccf17,
0x74f8ecad3de4d8ff,
0xd320618f793b3e39,
0xbde145ee33cfb8fb,
0xaf6478629c6aaa73,
0xe6739a5e1e01c49f,
0x000000000259acd2,
0x0000000002ef61b0,
0x0000000004b65bc9,
0x00000000069b48a7,
0x00000000013cc9e4,
0x0000000004e67329,
0x00000000013c0e4f,
0x000000000013fe0f,
0x000000000791c24f,
0x00000000036591d8,
0x00000000043e9dc8,
0x0000000006918a0f,
0x00000000016a3536,
0x0000000003350ba5,
0x0000000000bc1e0f,
0x0000000006331a8d,
0x0000000001d801ff,
0x00000000061c03c9,
0x00000000047a351a,
0x00000000058ec763,
0x0000000003fffc04,
0x000000000271389e,
0x00000000012bbe4a,
0x0000000003271b27,
0x0000000004b61b2d,
0x000000000786c327,
0x0000000001389dc8,
0x0000000006c3661b,
0x000000000691da4d,
0x00000000043a1fc8,
0x0000000007ff6a00,
0x0000000007a00847,
0x00000000072793c9,
0x00000000013a9dcc,
0x0000000003c3ec36,
0x00000000049e5369,
0x000000000168f534,
0x00000000007c3e1f,
0x00000000013c99ec,
0x00000000009e4f27,
0x0000000007fc0141,
0x0000000003603c1e,
0x00000000049c4927,
0x0000000004d078d9,
0x0000000003258ba4,
0x00000000034ba437,
0x0000000000be5bc8,
0x0000000000dc4e27,
0x00000000071880ff,
0x0000000007ec71fd,
0x000000000003be9f,
0x00000000074ba417,
0x0000000007270b27,
0x000000000743a1d8,
0x00000000027578dc,
0x0000000007e3f1fc,
0x0000000000180fff,
0x0000000000d9fcd8,
0x0000000007c16233,
0x0000000004d86c76,
0x000000000369ac36,
0x0000000001b4d8ec,
0x0000000002d16ad9,
0x0000000000da6df0,
0x0000000002371b85,
0x000000000760303f,
0x0000000004ea345a,
0x00000000046e370b,
0x00000000016c363b,
0x00000000013d9de4,
0x0000000004d8e45a,
0x00000000036db601,
0x0000000005a6532d,
0x000000000741ac17,
0x0000000001b0d86c,
0x0000000001b0fa6c,
0x0000000000be51e8,
0x0000000003633c1e,
0x00000000043e1bc9,
0x000000000743a1f0,
0x00000000069b49e4,
0x00000000065b259a,
0x0000000003198cd6,
0x00000000006e73b4,
0x00000000000a6db2,
0x00000000036c92d9,
0x0000000001ee772b,
0x000000000683ee27,
0x000000000361f05c,
0x0000000004da61f0,
0x000000000194cbe1,
0x0000000004cae453,
0x00000000009e5e27,
0x00000000005dadd0,
0x00000000046c361b,
0x0000000002974ac9,
0x00000000009e4be0,
0x00000000006d67b0,
0x0000000006371a8d,
0x0000000003371ba4,
0x000000000662341b,
0x0000000006371b8c,
0x00000000053a8d4e,
0x00000000012f9da4,
0x0000000004ba9dca,
0x0000000003350ba5,
0x0000000002657bb0,
0x0000000007a2522f,
0x0000000001349e0f,
0x00000000059bc4cb,
0x0000000005a6512f,
0x000000000791c8cd,
0x0000000001a4fb64,
0x00000000060f2783,
0x00000000059ac74b,
0x0000000002d17ad8,
0x00000000034f25b2,
0x0000000003e1b0f8,
0x00000000060f0793,
0x0000000007c36037,
0x0000000000bcd9e8,
0x0000000003c0e237,
0x0000000007fc01c2,
0x00000000026c139b,
0x000000000523be49,
0x00000000005f2fd0,
0x000000000733190f,
0x0000000007f800ff};
